TRT-7000-EntropyCalibration2
input_1: 3c010a14
conv1/convolution: 3d031d17
conv1/BiasAdd: 3d031d17
bn_conv1/batchnorm/mul_1: 3df3cbce
bn_conv1/batchnorm/add_1: 3cd15a85
activation_1/Relu: 3d2cf5e9
block_1a_conv_1/convolution: 3e16ae67
block_1a_conv_1/BiasAdd: 3e16ae67
block_1a_bn_1/batchnorm/mul_1: 3dd26d7d
block_1a_bn_1/batchnorm/add_1: 3cae5656
block_1a_relu_1/Relu: 3ce2a17e
block_1a_conv_2/convolution: 3d9f3e3e
block_1a_conv_2/BiasAdd: 3d9f3e3e
block_1a_bn_2/batchnorm/mul_1: 3daac508
block_1a_bn_2/batchnorm/add_1: 3caa7387
block_1a_conv_shortcut/convolution: 3d2db125
block_1a_conv_shortcut/BiasAdd: 3d2db125
block_1a_bn_shortcut/batchnorm/mul_1: 3d9f4267
block_1a_bn_shortcut/batchnorm/add_1: 3ca52c9a
add_1/add: 3cd859d7
block_1a_relu/Relu: 3da43f3f
block_1b_conv_1/convolution: 3dc351fd
block_1b_conv_1/BiasAdd: 3dc351fd
block_1b_bn_1/batchnorm/mul_1: 3de9f37d
block_1b_bn_1/batchnorm/add_1: 3cc6f614
block_1b_relu_1/Relu: 3d8315a5
block_1b_conv_2/convolution: 3d87d5dc
block_1b_conv_2/BiasAdd: 3d87d5dc
block_1b_bn_2/batchnorm/mul_1: 3e13661b
block_1b_bn_2/batchnorm/add_1: 3d15c189
add_2/add: 3d15c189
block_1b_relu/Relu: 3e24e871
block_2a_conv_1/convolution: 3e0c64b6
block_2a_conv_1/BiasAdd: 3e0c64b6
block_2a_bn_1/batchnorm/mul_1: 3dd78995
block_2a_bn_1/batchnorm/add_1: 3ce05978
block_2a_relu_1/Relu: 3dde71d4
block_2a_conv_2/convolution: 3d8efeb3
block_2a_conv_2/BiasAdd: 3d8efeb3
block_2a_bn_2/batchnorm/mul_1: 3de0ac4e
block_2a_bn_2/batchnorm/add_1: 3ce1f8e5
block_2a_conv_shortcut/convolution: 3d25c77d
block_2a_conv_shortcut/BiasAdd: 3d25c77d
block_2a_bn_shortcut/batchnorm/mul_1: 3d890af1
block_2a_bn_shortcut/batchnorm/add_1: 3c1f7099
add_3/add: 3c9f7086
block_2a_relu/Relu: 3ddbd9c4
block_2b_conv_1/convolution: 3da42ee7
block_2b_conv_1/BiasAdd: 3da42ee7
block_2b_bn_1/batchnorm/mul_1: 3d7b3de9
block_2b_bn_1/batchnorm/add_1: 3ce12d5b
block_2b_relu_1/Relu: 3d6cb8bc
block_2b_conv_2/convolution: 3d0b7143
block_2b_conv_2/BiasAdd: 3d0b7143
block_2b_bn_2/batchnorm/mul_1: 3de00275
block_2b_bn_2/batchnorm/add_1: 3d137cf0
add_4/add: 3d12c7da
block_2b_relu/Relu: 3d2e9958
block_3a_conv_1/convolution: 3de10c2d
block_3a_conv_1/BiasAdd: 3de10c2d
block_3a_bn_1/batchnorm/mul_1: 3e01d145
block_3a_bn_1/batchnorm/add_1: 3d81748c
block_3a_relu_1/Relu: 3e1476ea
block_3a_conv_2/convolution: 3dd2a7da
block_3a_conv_2/BiasAdd: 3dd2a7da
block_3a_bn_2/batchnorm/mul_1: 3dff4ce5
block_3a_bn_2/batchnorm/add_1: 3d878e08
block_3a_conv_shortcut/convolution: 3ca55df3
block_3a_conv_shortcut/BiasAdd: 3ca55df3
block_3a_bn_shortcut/batchnorm/mul_1: 3de8b7ae
block_3a_bn_shortcut/batchnorm/add_1: 3c8742ff
add_5/add: 3d671a2e
block_3a_relu/Relu: 3e20de99
block_3b_conv_1/convolution: 3ded05c8
block_3b_conv_1/BiasAdd: 3ded05c8
block_3b_bn_1/batchnorm/mul_1: 3da7292c
block_3b_bn_1/batchnorm/add_1: 3cd69ecb
block_3b_relu_1/Relu: 3dd1b355
block_3b_conv_2/convolution: 3d2b1752
block_3b_conv_2/BiasAdd: 3d2b1752
block_3b_bn_2/batchnorm/mul_1: 3de19ed5
block_3b_bn_2/batchnorm/add_1: 3d217277
add_6/add: 3d217277
block_3b_relu/Relu: 3e2f51f9
block_4a_conv_1/convolution: 3e43a85a
block_4a_conv_1/BiasAdd: 3e43a85a
block_4a_bn_1/batchnorm/mul_1: 3e306dc2
block_4a_bn_1/batchnorm/add_1: 3c9ea310
block_4a_relu_1/Relu: 3e288375
block_4a_conv_2/convolution: 3e0dfa67
block_4a_conv_2/BiasAdd: 3e0dfa67
block_4a_bn_2/batchnorm/mul_1: 3d9fc925
block_4a_bn_2/batchnorm/add_1: 3c818b22
block_4a_conv_shortcut/convolution: 3d350647
block_4a_conv_shortcut/BiasAdd: 3d350647
block_4a_bn_shortcut/batchnorm/mul_1: 3db0d8f3
block_4a_bn_shortcut/batchnorm/add_1: 3cab882d
add_7/add: 3d18864b
block_4a_relu/Relu: 3e137d06
block_4b_conv_1/convolution: 3e7f1afd
block_4b_conv_1/BiasAdd: 3e7f1afd
block_4b_bn_1/batchnorm/mul_1: 3e2b5989
block_4b_bn_1/batchnorm/add_1: 3cc2c1f8
block_4b_relu_1/Relu: 3e2a98c2
block_4b_conv_2/convolution: 3e2af3ad
block_4b_conv_2/BiasAdd: 3e2af3ad
block_4b_bn_2/batchnorm/mul_1: 3e21c9d1
block_4b_bn_2/batchnorm/add_1: 3d2e3c36
add_8/add: 3d373025
block_4b_relu/Relu: 3deac336
output_bbox/convolution: 3d7e1341
output_bbox/BiasAdd: 3d747e24
output_cov/convolution: 3e9387d1
output_cov/BiasAdd: 3e95b107
output_cov/Sigmoid: 3bede8a1
